<?xml version="1.0"?>
<opencv_storage>
<stage5>
  <maxWeakCount>5</maxWeakCount>
  <stageThreshold>1.7223513126373291e-01</stageThreshold>
  <weakClassifiers>
    <_>
      <internalNodes>
        0 -1 31022 -2.2858692705631256e-01</internalNodes>
      <leafValues>
        -9.0909093618392944e-01 5.8823531866073608e-01</leafValues></_>
    <_>
      <internalNodes>
        0 -1 9389 6.5315957181155682e-03</internalNodes>
      <leafValues>
        4.4208154082298279e-01 -7.1255892515182495e-01</leafValues></_>
    <_>
      <internalNodes>
        0 -1 711 -3.7720602005720139e-02</internalNodes>
      <leafValues>
        6.7416524887084961e-01 -4.1330328583717346e-01</leafValues></_>
    <_>
      <internalNodes>
        0 -1 8220 -1.2562144547700882e-03</internalNodes>
      <leafValues>
        3.9599725604057312e-01 -7.3850667476654053e-01</leafValues></_>
    <_>
      <internalNodes>
        0 -1 133003 7.9633478890173137e-05</internalNodes>
      <leafValues>
        3.1386479735374451e-01 -8.6696928739547729e-01</leafValues></_></weakClassifiers></stage5>
</opencv_storage>
