<?xml version="1.0"?>
<opencv_storage>
<stage7>
  <maxWeakCount>5</maxWeakCount>
  <stageThreshold>3.5532996058464050e-01</stageThreshold>
  <weakClassifiers>
    <_>
      <internalNodes>
        0 -1 116986 -2.5420868396759033e-01</internalNodes>
      <leafValues>
        -6.0784316062927246e-01 6.5680474042892456e-01</leafValues></_>
    <_>
      <internalNodes>
        0 -1 157427 1.4379402273334563e-05</internalNodes>
      <leafValues>
        -6.3420778512954712e-01 5.3700661659240723e-01</leafValues></_>
    <_>
      <internalNodes>
        0 -1 103335 6.4612468704581261e-03</internalNodes>
      <leafValues>
        -6.9023108482360840e-01 5.5179160833358765e-01</leafValues></_>
    <_>
      <internalNodes>
        0 -1 66092 -1.6509631276130676e-01</internalNodes>
      <leafValues>
        -4.8694038391113281e-01 6.3050770759582520e-01</leafValues></_>
    <_>
      <internalNodes>
        0 -1 8139 -4.4203717261552811e-03</internalNodes>
      <leafValues>
        3.6131519079208374e-01 -8.0703103542327881e-01</leafValues></_></weakClassifiers></stage7>
</opencv_storage>
