<?xml version="1.0"?>
<opencv_storage>
<stage11>
  <maxWeakCount>8</maxWeakCount>
  <stageThreshold>-4.1912680864334106e-01</stageThreshold>
  <weakClassifiers>
    <_>
      <internalNodes>
        0 -1 55451 -2.6694834232330322e-02</internalNodes>
      <leafValues>
        -7.0212763547897339e-01 5.2569168806076050e-01</leafValues></_>
    <_>
      <internalNodes>
        0 -1 122756 3.4959043841809034e-04</internalNodes>
      <leafValues>
        -5.5434739589691162e-01 5.5484765768051147e-01</leafValues></_>
    <_>
      <internalNodes>
        0 -1 71005 3.8290962576866150e-02</internalNodes>
      <leafValues>
        3.7241491675376892e-01 -6.8437862396240234e-01</leafValues></_>
    <_>
      <internalNodes>
        0 -1 161786 1.2206889368826523e-04</internalNodes>
      <leafValues>
        -3.9894136786460876e-01 7.4228805303573608e-01</leafValues></_>
    <_>
      <internalNodes>
        0 -1 7470 -5.2083720220252872e-05</internalNodes>
      <leafValues>
        6.1914175748825073e-01 -3.5207194089889526e-01</leafValues></_>
    <_>
      <internalNodes>
        0 -1 135268 -3.3650364726781845e-02</internalNodes>
      <leafValues>
        7.6884680986404419e-01 -3.0977082252502441e-01</leafValues></_>
    <_>
      <internalNodes>
        0 -1 7895 1.4924778603017330e-02</internalNodes>
      <leafValues>
        -4.7335156798362732e-01 5.5628794431686401e-01</leafValues></_>
    <_>
      <internalNodes>
        0 -1 158331 3.5204358864575624e-03</internalNodes>
      <leafValues>
        -3.4074875712394714e-01 6.8681377172470093e-01</leafValues></_></weakClassifiers></stage11>
</opencv_storage>
