<?xml version="1.0"?>
<opencv_storage>
<stage1>
  <maxWeakCount>7</maxWeakCount>
  <stageThreshold>-3.9511603116989136e-01</stageThreshold>
  <weakClassifiers>
    <_>
      <internalNodes>
        0 -1 76903 -1.6578768193721771e-01</internalNodes>
      <leafValues>
        7.9643768072128296e-01 -5.4589372873306274e-01</leafValues></_>
    <_>
      <internalNodes>
        0 -1 88693 -2.3223236203193665e-02</internalNodes>
      <leafValues>
        6.0716730356216431e-01 -6.8569481372833252e-01</leafValues></_>
    <_>
      <internalNodes>
        0 -1 138021 4.0003459900617599e-02</internalNodes>
      <leafValues>
        -5.1301968097686768e-01 6.4185822010040283e-01</leafValues></_>
    <_>
      <internalNodes>
        0 -1 9631 -1.5178013592958450e-02</internalNodes>
      <leafValues>
        4.6442627906799316e-01 -5.9691053628921509e-01</leafValues></_>
    <_>
      <internalNodes>
        0 -1 91767 4.3116752058267593e-03</internalNodes>
      <leafValues>
        -6.4177489280700684e-01 4.1404932737350464e-01</leafValues></_>
    <_>
      <internalNodes>
        0 -1 106407 -2.1606732159852982e-02</internalNodes>
      <leafValues>
        5.4910808801651001e-01 -4.8396661877632141e-01</leafValues></_>
    <_>
      <internalNodes>
        0 -1 131977 1.1900321987923235e-04</internalNodes>
      <leafValues>
        -6.2438601255416870e-01 4.4539502263069153e-01</leafValues></_></weakClassifiers></stage1>
</opencv_storage>
