<?xml version="1.0"?>
<opencv_storage>
<stage6>
  <maxWeakCount>14</maxWeakCount>
  <stageThreshold>-1.9580912590026855e-01</stageThreshold>
  <weakClassifiers>
    <_>
      <internalNodes>
        0 -1 24578 -7.1759730577468872e-02</internalNodes>
      <leafValues>
        7.5757575035095215e-01 -1.7811893542702384e-17</leafValues></_>
    <_>
      <internalNodes>
        0 -1 161596 -1.0890548583120108e-04</internalNodes>
      <leafValues>
        -6.3738125562667847e-01 2.8266331553459167e-01</leafValues></_>
    <_>
      <internalNodes>
        0 -1 53704 -1.5794876962900162e-02</internalNodes>
      <leafValues>
        5.4788720607757568e-01 -2.8601735830307007e-01</leafValues></_>
    <_>
      <internalNodes>
        0 -1 154608 1.9500654190778732e-02</internalNodes>
      <leafValues>
        -2.8781846165657043e-01 5.4515659809112549e-01</leafValues></_>
    <_>
      <internalNodes>
        0 -1 37240 -5.9073260053992271e-03</internalNodes>
      <leafValues>
        6.0054665803909302e-01 -2.6594603061676025e-01</leafValues></_>
    <_>
      <internalNodes>
        0 -1 148435 2.6018064469099045e-02</internalNodes>
      <leafValues>
        1.9247482717037201e-01 -7.7368026971817017e-01</leafValues></_>
    <_>
      <internalNodes>
        0 -1 153164 -3.6031678318977356e-03</internalNodes>
      <leafValues>
        4.5483461022377014e-01 -3.4092617034912109e-01</leafValues></_>
    <_>
      <internalNodes>
        0 -1 86326 -4.2060479521751404e-02</internalNodes>
      <leafValues>
        3.3881935477256775e-01 -4.2785677313804626e-01</leafValues></_>
    <_>
      <internalNodes>
        0 -1 84988 -7.9597216099500656e-03</internalNodes>
      <leafValues>
        1.9134967029094696e-01 -8.2778340578079224e-01</leafValues></_>
    <_>
      <internalNodes>
        0 -1 57307 1.4888783916831017e-02</internalNodes>
      <leafValues>
        -3.1502383947372437e-01 4.7059440612792969e-01</leafValues></_>
    <_>
      <internalNodes>
        0 -1 38176 -1.7708819359540939e-02</internalNodes>
      <leafValues>
        6.5070605278015137e-01 -2.0157700777053833e-01</leafValues></_>
    <_>
      <internalNodes>
        0 -1 4868 -2.8816949576139450e-02</internalNodes>
      <leafValues>
        -7.6578050851821899e-01 1.9992762804031372e-01</leafValues></_>
    <_>
      <internalNodes>
        0 -1 17246 1.0301043512299657e-03</internalNodes>
      <leafValues>
        1.7544737458229065e-01 -6.4153563976287842e-01</leafValues></_>
    <_>
      <internalNodes>
        0 -1 10340 6.3804918900132179e-03</internalNodes>
      <leafValues>
        -6.6480064392089844e-01 1.7473921179771423e-01</leafValues></_></weakClassifiers></stage6>
</opencv_storage>
